11100110
01011100
01100001
11011111
00110011
10111101
01101010
01001011
11011100
00111101
10000000
01000001
11110100
00111101
01111011
10110001
10010111
00101110
11101001
10110100
01110101
00001011
10000011
01001111
11010100
00010001
10110101
01010111
01100101
11101001
10000001
10111110
00111100
00011010
10000011
00001010
00000000
00000000
00000000
00000000
10111110
00000000
00000000
00000000
00000000
00000000
00000000
00000000
00000000
00000000
00000000
00000000
01010000
00000000
00000000
00000000
00000000
00000000
00000000
11010101
00000000
00000000
00000000
00000000
00000000
00000000
10000111
00000000
00000000
00000000
00000000
00000000
10001110
00010101
01110101
10101110
11101010
01110100
11100011
00111011
11000111
00111101
00001011
11001110
00011110
10110010
01010010
10011101
10110011
11101011
01011100
10100101
10000100
10001000
00111110
00110010
10110110
01111000
00010001
01110010
11010101
01100111
10110010
11010000
00011010
01110100
00110100
00000111
00000000
00000000
00000000
00000000
00000000
01100111
00000000
00000000
00000000
00000000
00000000
00000000
00000000
00100100
00000000
00000000
00000000
00000000
00000000
00000000
00000000
00000000
00000000
00000000
00000000
11010101
00000000
00000000
00000000
00000000
00000000
00000000
00000000
00000000
11001010
00000000
00111100
00101110
11000001
00011001
10010100
10101100
01001011
00011000
11100110
10110110
01011110
00100100
00000011
01110011
10000100
00110101
01111011
10111111
01011001
10011010
11101111
01000110
10101011
10010110
10100011
11110011
00100001
00100010
10110110
00100000
00111010
00100010
01110001
11001000
01001010
10100000
10101100
00000000
00000000
00000000
00000000
00000000
00000000
00000000
00000000
00000000
00000000
00000000
00000000
11100010
00000000
00000000
00000000
00000000
00000000
00000000
00000000
00000000
00000000
00000000
10000111
00000000
00000000
00000000
00000000
01001001
00000000
00000000
00000000
00000000
00000000
00000000
11111001
10011000
10100010
11110010
01010010
11000001
01101111
10100111
01010110
01111000
01000101
11111101
11110111
00000010
10101100
01100100
10001011
01100100
01001001
00010000
10101000
11100101
00111101
11100111
10010011
01100101
01100011
11111010
10110001
10100000
00011011
10000100
00010111
01110100
10010010
01101001
11001010
00000000
00000000
00000000
00000000
00000000
00000000
00000000
00000000
00000000
00000000
01010000
00000000
00000000
00000000
00000000
00000000
00000000
00000000
00000000
00000000
00000000
00000000
01100000
00000000
00000000
00000000
00000000
00000000
00000000
00000000
01100111
00000000
00000000
00000000
00000000
11001010
00010001
01011110
10001110
01001010
11010101
00010001
11110101
11010111
10110010
10001111
00001000
00011011
00000110
00100010
10101000
00101110
10010100
10001101
01111001
10001111
00011001
11011110
11111111
10101110
00111010
10101111
01100110
11101000
01000100
11011011
01111001
01111011
00101100
00100110
10101000
00000000
00111110
00000000
00000000
00000000
00000000
00000000
00000000
00000000
00000000
00000000
00010100
00000000
00000000
00000000
00000000
00000000
00000000
00000000
00000000
00000000
00000000
00000000
00000000
00000000
11111011
00000000
00000000
10010110
00000000
00000000
00000000
00000000
00000000
00000000
00000000
11110100
01101101
11101101
11010101
11100011
00101100
01100010
00011001
11100111
11001000
01101011
11010011
11110011
00100110
10111000
00100111
10010000
10010001
10001110
10101101
00011000
11010011
01000111
11110001
00100111
10010110
01001101
10011011
01001100
10111010
01101010
00000110
11011000
01110100
01011100
01001000
00000000
00000000
00000000
00000000
00000000
00011011
00000000
00000000
00000000
00000000
00000000
00000000
00000000
00000000
01001100
00000000
00000000
00000000
00000000
00000000
00000000
00000000
00000000
00000000
00000000
01100101
00000000
00000000
00000000
00000000
11101111
00000000
00000000
00000000
00000000
00000000
00010111
10111110
11000100
00110101
00000010
00100000
00100000
00100110
00010101
00000011
10101001
01101010
01110010
11011000
10100010
10110100
01110001
10111011
01010110
01101110
10101011
10110010
01111011
11100100
11010101
00000101
01111000
11000111
11110111
00010000
00011111
10001011
10110011
10001111
11110011
00100001
00000000
00000000
00000000
11110101
00000000
00000000
00000000
00000000
00000000
10011010
00000000
00000000
00000000
00000000
00000000
00000000
00000000
00000000
00000000
00000000
11111001
00000000
00000000
00000000
00000000
00000000
00000000
00000000
00010011
00000000
00000000
00000000
00000000
00000000
00000000
00000000
10110100
01111101
11110000
10001110
10000001
10000011
11001100
01111000
11010111
10001101
00101000
10110011
00010000
01110001
10100000
01110011
01001110
01111001
00111101
11011110
10001111
01110110
10100111
01011001
11001000
11010011
01010100
10100000
01001100
11101100
10011000
10101111
11011100
11000101
10010000
01110110
00000000
00000000
00000010
00000000
00000000
00000000
00000000
00000000
00000000
00000000
00000000
00000000
00000000
00000000
00000000
00000000
00000000
01111100
00000000
00000000
00000000
00000000
00000000
00000000
00000000
00000001
00000000
00000000
00000000
00000000
00000000
00010000
00000000
00000000
00000000
00000000
01101011
01110101
10011010
01010101
00011101
01111101
11000100
01110000
10100101
10001000
10101011
01111011
11001101
11011001
11011101
10010110
10000100
10110100
01001111
11011010
00000000
11100011
01101100
11011110
11010000
00111111
11010001
00010110
00001001
00011100
11001111
10111101
10101110
10111001
00101011
01010111
00000000
00000000
00000000
00000010
00000000
00000000
00000000
00000000
00000000
00000000
00000000
00000000
00000000
00000000
00000000
10101101
00000000
00000000
00011010
00000000
00000000
00000000
00000000
00000000
00000000
00000000
00000000
00000000
01100100
00000000
00000000
00000000
00000000
00000000
00000000
00000000
00000001
10001001
10110011
10000000
00111111
10010100
00001100
10101110
00111011
00000001
01011011
10011011
10111011
11010011
01100101
10101001
00101111
11011011
11101110
11000011
10101001
00001010
10110100
10100100
10101000
01010100
10010111
10100100
01100011
11111001
00101010
11100010
11111000
01000111
00111010
00101011
00000000
00000000
00000000
00000000
00000000
00000000
00000000
10110100
00000000
00000000
10101101
00000000
00000000
00000000
00000000
00000000
00000000
00000000
00000000
00000000
00000000
01110001
00000000
00000000
00000000
00000000
00000000
00000000
00000000
00001110
00000000
00000000
00000000
00000000
00000000
00000000
10010100
00011001
01110011
10101110
00100000
11000100
10010011
00011110
01001011
11101110
01010101
00101101
11110000
00111011
11011011
01101010
00101110
01000110
00011001
10101111
11010100
11011011
01011000
01111000
10011010
01110111
01111011
11100111
01110111
10110110
00100011
01010101
10101010
11010100
11000110
01011010
00000000
01111111
00000000
00000000
00000000
00000000
00000000
00000000
00000000
00000000
01010101
00000000
00000000
00000000
00000000
00000000
00000000
00000000
00000000
00000000
00000000
00000000
00000000
00000000
00000000
11100011
00000000
00000000
00000000
00000000
11001011
00000000
00000000
00000000
00000000
00000000
10111001
11001101
00010101
00011100
10010101
11110000
11010110
00000110
01111100
00101011
00111101
10101000
00011100
01111100
01101001
01000011
11111110
10000111
00111011
00011000
11100110
00011011
11111011
10100001
01101110
00001010
01101100
10100010
00100110
00101101
00001111
01000000
10010011
01100011
11111000
01100010
00000000
00000000
01111111
00000000
00000000
00000000
00000000
00000000
00000000
00000000
00000000
00000000
00000000
10111001
00000000
00000000
00000000
00000000
00000000
00000000
11100011
00000000
00000000
00000000
00000000
00000000
00000000
00000000
00000000
00101110
00000000
00000000
00000000
00000000
00000000
00000000
01101011
01110010
00010011
11101110
11011000
11101011
01100111
10000101
10110000
00101110
00101111
01001101
10001000
10100010
00100000
11100001
10101100
01001101
10101000
00011100
10010011
10100100
00011100
00010100
01011000
11001011
10001110
11100100
00111010
00011101
10011110
00101110
10011111
01000010
01111000
01001101
00000000
00000000
00000000
00000000
00000000
00000000
00000000
00010011
00000000
00000010
00000000
00000000
00000000
00000000
00000000
00000000
00000000
00000000
10000000
00000000
00000000
00000000
00000000
00000000
00000000
00000000
00000000
00000000
00000000
00000000
00000000
10011100
00000000
00000000
00000000
00000000
01011010
00100001
11010111
00000110
10111010
11100100
00100010
00011100
01111110
11010000
00001100
10011100
11100100
00100011
11100111
10111111
11000010
10110001
10101100
01101111
11001110
10101010
11000000
01000000
10010101
10010011
11011000
00000010
11101010
11010010
01011001
10000000
01001111
01000010
01000010
10000100
00000000
00000000
00000000
00000000
00000000
00000000
00000000
11111111
00000000
00000000
00000000
00000000
00101010
00000000
00000000
00000000
00000000
00000000
00000000
00000000
00000000
00000000
00000000
00011000
00000000
00000000
00000000
00000000
00000000
00000000
11000110
00000000
00000000
00000000
00000000
00000000
00101001
01011110
00110101
10100011
01111111
11000111
01110010
10001011
01011011
11100111
10001111
00011011
00101001
00000011
11011101
11011111
01000001
10000001
11000110
00011111
00100100
01111100
10001000
10001010
11100100
11101100
11010111
01011001
01011100
00101111
00001111
01110110
00000001
11101001
10111100
01111110
00000000
00000000
00000000
00000000
00000000
00010111
00000000
00000000
00000000
00000000
00000000
00000000
00000000
00000000
00000000
00000000
00000000
01111010
00000000
00000000
00000000
00000000
00000000
00000000
00000000
00000000
11100100
00000000
11101011
00000000
00000000
00000000
00000000
00000000
00000000
00000000
00111011
10001010
11001000
01111001
01001111
01100011
01001001
11011101
10001110
01111101
10000011
01010111
11101100
00000101
10101101
10100011
00000101
10110101
00000000
01110100
10010110
11100101
01101011
10000111
01011111
10110010
00000111
00001101
00110001
00001101
11000001
11100110
11100011
11101001
11111110
10011010
00000000
00000000
00000000
00000000
00000000
00000000
00000000
00000000
00000001
00000000
00000000
00000000
00000000
00000000
00001110
00000000
00000000
00000000
00000000
00000000
00000000
00000000
00000000
10001011
00000000
00000000
00000000
01000011
00000000
00000000
00000000
00000000
00000000
00000000
00000000
00000000
